CC3922B7B5E9DF0CED15C9F6C42E0E1BCDDC397CA8D531F53701DBFC38D841DFCDF21EE03417FCBC3A34B9AF3B52F23AF5E1DB49F623123919CF01EF017AD3DE19FBE41918D4FAF9C4E7071AC1C4EEE1013FCDFF2A0BF627FBDC0A2112C6E216
E35AF4E9E01819DACF531AD32730ECFC13BD1C49A40627FB14E6F1D92EE828B105F038EB402103FE1C3BCDCC2434EAEB0A030660093B1DC30AF825BE283EC0DB26B5E51256FAB7C7DEFF28EFE80C04B7D953FC972DEDFBBC27142645EFEF17B5
07491CEF043821C2DF1C1D4726C5A51B394C2E1CD51E010B09E9E5E206E319D5DA532E15FDF472BD087303CC2B4DE580234EF2F1247FE1E41E1612F8F311CA240CF24B27FE6447F5EDDE5E3BAEDB0A85F07F1DC025FCE5FE39471FE2D1D8190E
EA9805301BA1EFDFE85CECB5E60E021EC480ED69D6A2D544100CEEBE18CE3D0736156A33032920CD09422E83D6F71FDA0EE6DFF415451367ACC21BF5F054FBD00116D1E325F00B05BCC106269FC10CF4DC37444508D0EAE4FCDDCE272B00ACBF
DA020228D280159D0F693A6B2411C5FE23DD0B77BA9DCC642CBEC8C542E320FE41B72CDBE1F24A20DC23239EFC0111F9FDE026100E4B317AA9851AA82F7FDBB1FFD4DD3333FBB280FFB32331E7BA1C01E60247492B84FAB7041B283DEBF9009B
ADEC24C7AC87FB8050F015331BC6EFF326523A7FA1C1106FF480F2B3F407F41911CE101DCEB9417FB6FA2AD0F6D525E50AE1F9DCE4EA0FE0DCCEF8B917F1D2CB0D8D3E31D1153DF121D3F37F07DD2E4AE2E90835F9D4F6130F0F20B9D3DD350D
3208DD064C582CD4FF6A25350709DB4CE8A6C8D82F1CB5AC36FA39E412AEE99F16BE3D3CBBB73D6C9E0E1A66C9AD1835093AE800DC5DE5553CC7BDFAEDC9314EE220E5CE24EA151D0DB90756F69EC91FDF9FF85D2CCE1EDD1810E10D0623B980
3D24E81F370DF3A23C1C276933D3EF0A354696EF3939C4D239A202B842309DAD3B9CDE55C1D84B41B9DE3304D5A9343FFEFFD51EF30E2D7FC38BEDE8F742FA9CE530DB5538D9D38619E6C455330BC927FA12B56C1280D0FE27112625D7DF15C6
27D3FAF12DA698A331FBB700FDA404D43534046B023CA81FDCBD3008F217A517131880EDF32703F9E5D233FFF8F2120F0203EBDA08F63548BFE016F82E4ACCCC110D3265D9C72FCD2CE3D612323EC8422649BF4721FFC1F71D4020CBD8C04103
