memory_initialization_radix=10;
memory_initialization_vector=
1171128369510879449178637, 14258386587468532155672, 33202550404179004493569, 151040197319669100643849, 33111471606451609013479, 28685398586858146157590, 9484650886057546483451, 1175761736124850248750591,
1199522298217098661922306, 1171093354377561567728646, 1199719813425007959655937, 1142759581294985388553189, 1185349657965588282475244, 132151109375137441375401, 1180793746497448198978054, 1114439793087534579387381,
1152018841934456418013937, 65779571668179626491107, 1199794971787947075490557, 1029091389133660117737992, 1104904830183204789159953, 143972797897472931845, 1166144151118638824550707, 1194753897669203338920715,
1203902040980159319783422, 14296152350908941864722, 47350775551397852155924, 85551045623279796286490, 929858643001886417050643, 996730980737422634518743, 1128866946352174154057203, 1146632474808099193222379,
1094855843392512391655661, 1156372714076904854910962, 1109648841589258983570624, 1057296445659367740940989, 861836215842515461556979, 1061597153324547174447072, 156093254952705522526696, 47924768591871761775329,
1015202210271360596388808, 1062060091612434843326158, 1199021568352457416465630, 117967426534683529314272, 1189871565234585856631576, 3432389474085180947181, 182422775037186338471610, 131175947228140702721820,
65816409431797462654993, 1024238676700366590772021, 1185110207719511948268249, 1195219257673675003181230, 1180441169269390687359763, 1133037215730119066722545, 986826517129320276756950, 42518376798133419647959,
28149309527578729514481, 1104778528451552538659596, 1161313702164428707990219, 1123980574891181121397970, 1048222156839804022762158, 27509500551554507670296, 1166611297931308951336722, 66149366418100851448024,
90073557832053283879168, 1165690376278728845701866, 52224459872478399425565, 1204664041607069038026773, 174119321418146069090799, 1189651858282192511032605, 1194186290980963691270368, 169045605795411565017870,
117359264706923865907451, 98858401724280459883271, 1010605380744114154958580, 1085736829533966182454489, 935065115935612909521897, 963360246357774800399363, 1080796179774151367604217, 1123682989627786729492748,
1072050851911857017594071, 1085559179177780486990340, 1009649608258161701945358, 1189982720258022761966107, 52003603024540669449493, 75394089170036345931250, 1180155319008221580940285, 968033322978742843092478,
245140351194379464941566, 211843134328741625791754, 108728934769430703826913, 1034037578348470496069386, 1034621963758211826258165, 249897471141943564110790, 28222580840629554119157, 19222730014695002470670,
1067070651862113000229913, 1147443692792964787277807, 32724953258142553933764, 1180775010386988515786483, 878695107779184943438310, 693948787520022753450625, 1062702284598168179956694, 254699795372298216000780,
1030489160952613031889908, 1053145589600451199900144, 1161723605437628443256580, 1195204515720502510749898, 1162166273281668976470786, 1157604247910720558183975, 1171479576572737267297746, 38165068558733707042014,
137704568180392517692131, 1180996154032785899566599, 953567334579737130426643, 103814673920639539415550, 94465838635057532169696, 151390117710067574568124, 1185974478638927944076533, 878344595161406391857908,
52053469759274337692915, 80497994183054694872073, 28718420980313187940598, 1062604951114170330977767, 1170296528744283405559562, 1057644864630783272678905, 89777933953499641353494, 56757043540210415049974,
1024898507229488659827428, 1161716577852154898687464, 85387251374484035806247, 1199371494647258845869811, 1156535412778933760947978, 1204094994296716625378058, 1180466224345522078755577, 103650678393435464135712,
1199425607934329816811553, 1152182996740075084776997, 1133369888466522708984852, 179651967574551166391304, 421972646207759108892, 1133776239819588148920099, 949361690488997090963202, 32688422004099849515040,
291942559618617840431107, 1185242863525891898077726, 1204224993553090052689134, 32856303265804060530149, 136801401419338947685383, 19606741600838282612948, 1114621679384069376968951, 118257987266305379390706,
218636512947789300472, 1109479716176730747773930, 1180647684359206656749295, 132777433434888445952024, 156260282162267442827753, 80149525599307182560546, 1157311472701607913968140, 1162126496277257468580803,
23445322481292542353742, 1195716729803040571531045, 1095698919711482074372115, 1129366371325486377133599, 1205036128648716770213407, 1176368413792093204113701, 987952994585327682318855, 10069831208637642372626,
13871306691881892759597, 183546550848053082979081, 1100514592642295812864779, 1208614749257207242427914, 145675733741868748303606, 1138859040140416141079800, 14773537847546829266975, 1189687589865769823186225,
1137595266713669042176486, 98710314880221319387920, 146265378229851450831625, 179654342483121970536710, 1052946052516019110153737, 991005192423644752717828, 1137488638103111412411404, 1113371699743513036914166,
230916217632151458733842, 939992665332872268816049, 1208137061443793373952449, 1014793663171157730427117, 1010191431325384004467599, 1099279752689196053622721, 33089983561586976760470, 163145141894650006488730,
243588665824554104905226, 987013000228669242348303, 1010739555354266565608447, 1203062193977698807327529, 306029372055004770469102, 154983791236048489237006, 69673585436271059740984, 1076161352305919030925849;
