memory_initialization_radix=10;
memory_initialization_vector=
28259641274236182653959,
996033759270323429191917,
698813907205306142175202,
898127875590745513740821,
1039508903009796266200633,
1208833813342551360600848,
1128592843261603557726684,
995922565943114721394433,
1147606597692777009080328,
977641092855200999289970,
1161753037304351039884548,
51963404519991699827193,
1152815515481111753199854,
1038165524000020226991657,
283379097435682118106455,
1086311829195849231694076,
1076145367101015269046071,
37740176136354981492203,
65874253944716218681899,
1105161586903633803277645,
160597495497597208628450,
1049046958450623249965377,
145567503187282112818903,
282185158592949760770947,
123384614635164611573260,
1171001269212432590441980,
1067384238054150421808629,
146427295556984381773567,
85721873605142476157955,
108132011099324398624798,
1199833301927746787344388,
4815243377003935757320,
94761846698800290334241,
94152175265004788049946,
66538490647395346995989,
71332332402422891070715,
99719352594775547569658,
1191049907354465483227664,
33516362912959589444356,
1105365234309885201476363,
42371523176464104941067,
33277784167402847591432,
1105861991201692967565293,
28626253397879442502398,
1119164683244195228943345,
1161881078596692002008062,
1104975468873884570806052,
1152331286756136055341071,
1152753757042509925249007,
1081049676170113995060947,
1071572302517355636338165,
925399141115955388556289,
1138126560310000360497173,
76018813320129064199695,
235877947283896388204073,
1171131674891244574541305,
19075656012391118732036,
80946380704856191144494,
51708733816932447285297,
71167972374823350892056,
113723458079083412647162,
194332339573424374008586,
1129493629034347003900665,
132371964513197824669712,
1194628092449347214372348,
51979404946359979993596,
99260348251671789958660,
996658271987740947383552,
1166977927542641499828969,
1152533768905432378640896,
1114678243173532389597204,
1067362271470698143678224,
1057828265873831271138592,
1114126140131201791949298,
117633513911009808953279,
1067199203691804978454522,
589652075841428055556,
1195125493591124301251358,
1180995430058108750268415,
51908420049932145060869,
52224023305928274074357,
42835067461095987865619,
122892125988131152271101,
141672571579286274375951,
1199407870822628675869462,
47758262914006559355162,
23591662196865956381458,
47461013800235646914797,
245820586702913208771054,
1199943116812655480268812,
1114679747396921053009681,
1062590827277159669169683,
109166323554676917791482,
56981556981103769348073,
1057756850583931942141218,
1048475174406282608517902,
1105162812160994525512185,
1166164901718916316201487,
1072529882365850742085395,
1066939142495783392978933;
