memory_initialization_radix=10;
memory_initialization_vector=
878695107779184943438310,
693948787520022753450625,
1062702284598168179956694,
254699795372298216000780,
1030489160952613031889908,
1053145589600451199900144,
1161723605437628443256580,
1195204515720502510749898,
1162166273281668976470786,
1157604247910720558183975,
1171479576572737267297746,
38165068558733707042014,
137704568180392517692131,
1180996154032785899566599,
953567334579737130426643,
103814673920639539415550,
94465838635057532169696,
151390117710067574568124,
1185974478638927944076533,
878344595161406391857908,
52053469759274337692915,
80497994183054694872073,
28718420980313187940598,
1062604951114170330977767,
1170296528744283405559562,
1057644864630783272678905,
89777933953499641353494,
56757043540210415049974,
1024898507229488659827428,
1161716577852154898687464,
85387251374484035806247,
1199371494647258845869811,
1156535412778933760947978,
1204094994296716625378058,
1180466224345522078755577,
103650678393435464135712,
1199425607934329816811553,
1152182996740075084776997,
1133369888466522708984852,
179651967574551166391304,
421972646207759108892,
1133776239819588148920099,
949361690488997090963202,
32688422004099849515040,
291942559618617840431107,
1185242863525891898077726,
1204224993553090052689134,
32856303265804060530149,
136801401419338947685383,
19606741600838282612948,
1114621679384069376968951,
118257987266305379390706,
218636512947789300472,
1109479716176730747773930,
1180647684359206656749295,
132777433434888445952024,
156260282162267442827753,
80149525599307182560546,
1157311472701607913968140,
1162126496277257468580803,
23445322481292542353742,
1195716729803040571531045,
1095698919711482074372115,
1129366371325486377133599,
1205036128648716770213407,
1176368413792093204113701,
987952994585327682318855,
10069831208637642372626,
13871306691881892759597,
183546550848053082979081,
1100514592642295812864779,
1208614749257207242427914,
145675733741868748303606,
1138859040140416141079800,
14773537847546829266975,
1189687589865769823186225,
1137595266713669042176486,
98710314880221319387920,
146265378229851450831625,
179654342483121970536710,
1052946052516019110153737,
991005192423644752717828,
1137488638103111412411404,
1113371699743513036914166,
230916217632151458733842,
939992665332872268816049,
1208137061443793373952449,
1014793663171157730427117,
1010191431325384004467599,
1099279752689196053622721,
33089983561586976760470,
163145141894650006488730,
243588665824554104905226,
987013000228669242348303,
1010739555354266565608447,
1203062193977698807327529,
306029372055004770469102,
154983791236048489237006,
69673585436271059740984,
1076161352305919030925849;
