memory_initialization_radix=10;
memory_initialization_vector=
1171128369510879449178637,
14258386587468532155672,
33202550404179004493569,
151040197319669100643849,
33111471606451609013479,
28685398586858146157590,
9484650886057546483451,
1175761736124850248750591,
1199522298217098661922306,
1171093354377561567728646,
1199719813425007959655937,
1142759581294985388553189,
1185349657965588282475244,
132151109375137441375401,
1180793746497448198978054,
1114439793087534579387381,
1152018841934456418013937,
65779571668179626491107,
1199794971787947075490557,
1029091389133660117737992,
1104904830183204789159953,
143972797897472931845,
1166144151118638824550707,
1194753897669203338920715,
1203902040980159319783422,
14296152350908941864722,
47350775551397852155924,
85551045623279796286490,
929858643001886417050643,
996730980737422634518743,
1128866946352174154057203,
1146632474808099193222379,
1094855843392512391655661,
1156372714076904854910962,
1109648841589258983570624,
1057296445659367740940989,
861836215842515461556979,
1061597153324547174447072,
156093254952705522526696,
47924768591871761775329,
1015202210271360596388808,
1062060091612434843326158,
1199021568352457416465630,
117967426534683529314272,
1189871565234585856631576,
3432389474085180947181,
182422775037186338471610,
131175947228140702721820,
65816409431797462654993,
1024238676700366590772021,
1185110207719511948268249,
1195219257673675003181230,
1180441169269390687359763,
1133037215730119066722545,
986826517129320276756950,
42518376798133419647959,
28149309527578729514481,
1104778528451552538659596,
1161313702164428707990219,
1123980574891181121397970,
1048222156839804022762158,
27509500551554507670296,
1166611297931308951336722,
66149366418100851448024,
90073557832053283879168,
1165690376278728845701866,
52224459872478399425565,
1204664041607069038026773,
174119321418146069090799,
1189651858282192511032605,
1194186290980963691270368,
169045605795411565017870,
117359264706923865907451,
98858401724280459883271,
1010605380744114154958580,
1085736829533966182454489,
935065115935612909521897,
963360246357774800399363,
1080796179774151367604217,
1123682989627786729492748,
1072050851911857017594071,
1085559179177780486990340,
1009649608258161701945358,
1189982720258022761966107,
52003603024540669449493,
75394089170036345931250,
1180155319008221580940285,
968033322978742843092478,
245140351194379464941566,
211843134328741625791754,
108728934769430703826913,
1034037578348470496069386,
1034621963758211826258165,
249897471141943564110790,
28222580840629554119157,
19222730014695002470670,
1067070651862113000229913,
1147443692792964787277807,
32724953258142553933764,
1180775010386988515786483;
