memory_initialization_radix=10;
memory_initialization_vector=
1118794744332691425729012,
1123937643730547338576895,
987101857377737577735144,
992041605314885928034262,
940300957505489016856548,
1157255697985108307481868,
61224678315984797043440,
94504101490126769953506,
37892406775908135928566,
57038763632049550524679,
118022850415356833554186,
113465498641036626758146,
1181217575783332578662153,
4558141580240404417812,
4041489485361188700937,
1194719737306790023646722,
32944953778945524171307,
1176034561672573989238788,
70392704186490419810818,
1124108836536509262383422,
1020104155201082965222424,
1189832510892543941083950,
136786934930583526508545,
51598497553160650289323,
108537832174059937660309,
1194482669768369294343164,
1194777535068162514348024,
70981489851503001405968,
54399835186227846916,
1123812402316959110791426,
1171186882253004736820717,
1204242363965392994297859,
103634746664417540116713,
98342178543299137511422,
103929239269660466351890,
33481995363737254556177,
61351210000881422761226,
1204184071326666850960359,
136581337469967901132525,
127191660747972384393493,
1053235083730312393583126,
1166702887335818851250191,
1053621609955540787728616,
79913386971297688454118,
1189650558155885037749262,
1185424734933841093981708,
1161645302753733313162775,
1119164542795757352784883,
1142756847348246722308358,
1137961407694311502183928,
609667849882975995308016,
344954100090437980968682,
147240320290718873796614,
1181144524279969696313062,
1180315924440719595337726,
9242306530837165968155,
38092513258513906929621,
85519236677445160713994,
52647301463624360051946,
1138146020157375670977760,
1020346248754292243358676,
1086147589649882094097901,
126913885215465078642169,
90220307371611336254365,
1190570580540324248807683,
1038643197523437133370064,
1180612423970024613405160,
245948772963722812893667,
1142885181034977461055751,
930180961818697126575905,
1195142778698100835889127,
75483563355823003801102,
103758322906133271670814,
1067988232660784265357847,
1034421491053503794468111,
51872600970629562103549,
1204481229818595585551114,
122984436254527585326080,
75334992424380055889421,
1194537071042106229924340,
123038128992888225723404,
170132594874281222009639,
103632583508325599031571,
1019201943215371408919298,
656504148426745405517504,
14310784228516173180427,
1047925447269968304408862,
1085371418198848662222858,
232169578367321319346666,
141759550455394579199748,
1100844331005228690049783,
898173837587831175578048,
1124108848900345788041942,
170615580568510510123747,
262852191078291928522510,
28463313727312244842216,
197878692354250686133397,
1151537262781544560140529,
1147351598715649635843082,
17959257020533447127105;
