memory_initialization_radix=10;
memory_initialization_vector=
1238516371603442672894998379525242514295282829802281804857566374232343236396710051204637545794841695102332990012186866056958044479059471390803163094793052368986027995253451745703227736917442603367517251960482863513548791504676774422,
1378801624943449223765045288994348096305799401246091167722103431276276423447426937838750344802910895466928377124060892261218577048989078700540149334590929883832945036104612563369630776996323878884401545359748642114163026466289162165,
44183680892930931094793920200797400451904123965744055427711588412990395671230968234373631635516294456472815408774813790637338450438927595899501221752995774576133788142353764923460074569398815287702782221422497674957865976000420110,
1422699859824914871062232013977889819063185555853097468723420708729163305867557457556895662330983153929404386626055595697630650580727309868077578224838501005349071653347076880559021409395182011619691704258616253175689200549324958911,
1322113766897752916749957101261094939150692338476854944984541457249787475293162933982535665931825851908392733120441841593819337246036371283949896670390084959926198315681600218787850281232089139082956296033424301376035270661185798299,
1054756753458232626575401608587311660352385318452651004416247427307502123382214722493131742267104917709081035648016823484400397937987464047526854815687599746984053081126034567801075867786782888496831268468227978567287644502668162317,
303436159288770027469507686048821170394047320358805058770098515230429093507569047844690279218539946698754359892495009116255426749044173562088322635200305198656380485032597144354219900381585482673880196802739921615199625168157915520,
370810255274694313494793030386935609543645618827293752169747420341056452893403026494164432379944273317128058467410335142555435441954835669606444242859548879509397138604114745590854260458963788828464116666668780155970596039097783750,
241538143850101394032635164181837105765992920039427695622587945786590060580283544464062363983463660350213634379502118976978292287767894793520650727543660253144861967544265892857327653951603280405910794070145528877548451338303586563;
